1010001111110001
0111110000001110
0001100110110100
1101011001100010
0100010010101111
1000111000110001
1111001000000101
0011101111011000
1001000111000111
0110101001001101
1110000110001011
0010011111110000
0101110010010011
1011000101001110
0000110101110111
1100100010100010
0010111101101011
0111010011011001
1010111000010000
0001001111000101
1101100101001010
0110100011110010
1011011100000011
0100111010001100
1111100101100001
0010010111011010
1000000010110111
1100101100110100
0001111001101111
0101011110101000
1001110100000010
0011011011101100
1110010001110001
0000101010011011
1011100001011101
0110001111110100
1101110000010110
0010000101001000
0111111110100001
1001010111001110
0100101101110010
1100000000011001
0001100001101110
1010011101010010
0110110110000011
1111010010110000
0011001011000111
1000101000011101
1101010100111110
0000100111110110
1011110000100001
0100011110101001
1110100001101100
0001001001011111
0111000111010100
1001101100001000
0010110011100011
1111011001110001
0101101000101100
1000010011011111
1101000110110101
0011111101000000
0110100010101110
1001011111000010
0011000110010110
1111010101101100
0100101001111111
1000011011110001
0110111011101100
1010110100011110
1001010101001110
0000011101011101
0101110111101101
0011011001000011
1111001001010110
1101001111010101
0101000100100110
1101111001111101
0110011011111000
1101110101011110
0110111001011110
1011011001010101
0100011001001110
1001111001000100
0100011110101111
0000101001010010
1011010001001100
0011110000110100
0000001011111100
0111011001110100
0011001000101000
0000011110000110
0100110110010000
1010100110000100
1111101000111110
0010100010011000
1110011000000111
1010000111001100
1111000110011010
1001101101010110
1010001111011110
0011011011100011
1110011110111101
1110100001000101
1011100000010101
1110110010110001
0110011011010111
1110111001000100
0011000110100101
1010100011100111
1011111011110100
0010111000001011
1001110101101000
0111000101111101
0011011010101011
0101100101110000
1001011001000100
1011111001100101
1010100011011110
0100011110001110
1001101110010100
1011111001010011
0001000101100111
0100011001100110
0011101010101111
0110101110101000
0000101100110000
1101100011010001
0000010110100110
1101101001111110
0010101110100011
0011011100000111
0001001110011111
1111011111100010
1000111110010101
1110110000001110
0110110101001100
0010011000000110
1010001010010110
0011110000101000
0100001011111110
0000000111010000
1100110011111110
0000011011010000
1010010001000110
1000000001101011
1011101110101100
0100101001000100
1011110111100000
0110011001000010
0001100011100010
1000110101100000
1100111101001011
1111011001001010
0000001010001100
0011010001010000
1111101000111001
1010001010011010
0001100101111011
1100110010111111
0110011100011011
0111001001011001
1000110000001001
0110001001001000
0011010011000011
1100100101111110
0101100010000011
0110000010011101
0011100000001000
0011101101010010
0111111011110111
1110110011111001
1011001110011100
1100110101011101
0001011100111001
1111010001100000
0011111010111101
1001010110101100
1111011111110000
0001100101110101
0011110000111101
0011010101001011
0101001110101101
1101110101100011
0000111001011111
1100100001111001
0110110111110110
0010011000100100
1001110000001110
1000101000011100
1110100010010001
0000001001000000
0110001001100011
1101011001111111
0100011010101110
1011111000101110
1010110010111000
0011000101000001
0000010110000001
0100100100111011
1111000011110110
1001111001110101
0101111110110101
0001000110110101
0000101100000100
1101100111011000
1110001100010010
1110010011111010
0000110011111011
0000111011010100
1000010110101011
0011011100111010
0001101101001000
1010000110111010
0101001111000000
0101010001010000
0110011000010010
1101111010011110
1001101100110101
1011110111111111
1010010000101000
0010001001110000
1010100010001011
0111011011011011
0100111111100010
0101100011010001
1110110100000010
0011100001101001
1110101000110011
1001011100010001
1001101001100010
0001001000110111
0101111110100001
0010010111001000
0001010101101011
1000000010010000
1110110100110111
0100000111010111
0110110100101101
0010100011110011
0101000000000000
1111101110010100
1110001010000000
0101010100111110
1100100001110100
0111111111011101
1010101101111101
0110000111001101
1000000011010010
1110100010011011
0100101100000001
0011011111111010
1101000110101100
1010110000111010
0110100111110110
0001010001001000
0101001010001111
0110001110000011
1010101111101100
1001001101100011
1010010101101011
1000111110011011
0010110111110011
1100111010101110
0101111011101101
1000111100111100
0001010110000100
0010110101000101
1100111111100101
1111001110011111
1011001010111010
0100110110110010
0001010100001010
0011101010011101
0001101111001110
0111100011010111
1000001010001001
0110101011001001
1000000011001011
0111011010111010
0001000001100010
1001110011010011
1111001011010110
0011001111111101
1110011011011110
1011111001100101
0100101010000011
0110001100001100
0110100011000011
1010001001100010
1010110000110001
0010100000010100
1101001111111010
0111101111011001
1101110011111011
0110101011111111
0101000110011011
0101000110110000
1011010101001010
1001000110100111
0101100010100010
0001110010111101
1111010011100010
0011001010100010
1110011010110001
1011100110011110
0001001101111010
1110011000000001
0010000100100001
1110111010011100
1100111001110000
0010000011111101
1110110110001000
1111101010010110
0101011001000010
0001111111100000
0111001111011001
0011100011000000
1110110101111000
1111001011001100
1010111001100100
1001110111000111
1101011001010000
1100110100010010
0010011101011000
0000111000110111
1101100100111001
0100011010011000
0100001000010010
1000001100000000
1011101000101000
1101110000110110
1110001100111010
1000100100001000
0000100111000001
1111011010011011
0011110000110101
1111001100000101
0100010001110000
0110111000110111
0011100111010001
1100001000001011
0100110110000010
1000000100010101
1011001000010001
0000101010111000
0001011100011100
0001110011010001
0101100110110101
0111111011110010
0101011010000111
1111100100111000
0000101111000010
1101110111111001
1001111111110100
0011111001011111
0001101100101111
0001011010110000
1001101101110110
1111110111000011
1110101110000100
0101100111110011
0110011111101101
0101110011100000
0100110010111000
1011111011100101
1011101111111011
1111111101001010
0010001010111110
0100100101000001
1110111001100101
0000101111001101
0001101100011101
0111111001100111
0100000000010101
0000000011001100
1110010010101000
1110110010111101
1111101111011010
1101000000101100
0011010101101100
1010010010100101
1110100110011111
1111111001110101
1010100110111101
0011101001100101
1010000110011100
0001111110011010
0101011100001000
0110101010010100
1011111010010110
1111110000100110
0011111011001110
0000010110010000
1000011101100011
0001110100010011
0010111110011001
0110010100111100
1111011100100101
0111001001000010
1100110010010101
1110001111100000
1110011010011010
1111101011110000
1010011010110010
0111011101011101
0101101111110110
1001101001111101
1101101001000011
1010100000110100
0001111000100100
1001101010100111
1111100010110000
1101000101011101
1001001000010000
0001011100000000
0001011011111000
0000100100001011
1101000111011000
0100010011010010
1010001101101100
0100110001100010
1001011001101010
1100010111001000
1110001000110111
0000111110001101
1101100001001100
1001001110100100
0001001100110101
0001111010011010
1001011100110101
0011000000000100
1111010101110101
0111011000111011
1001111010000000
0101001011001001
1110101011000000
1111011001000110
1101011110011110
1101101110010100
0101010110011011
1010100000100001
0010101001011100
0011100001100000
1011001100011100
1010101011001111
0111101011110111
1110110101010101
1101110010011010
0011010011000000
0111101010000110
1011111110011001
1111001110001010
1000000000011101
1000110101011100
1100101010101100
0010001111101011
0111000001001100
0110111010101110
1100111010101001
0101000010100000
1111100011100001
0000010111011011
1011011010101111
1100001111101001
0011010110111000
0111011101100101
0000000110101100
1011101001111110
0011110001100011
0010011011000111
0111001111101010
0001000011101101
1100111110001110
1011110101010011
0110111110010001
0001010010011010
1111101011111100
1001110111001110
1001001000001011
1011010010001110
0100001010100010
1101100110100110
1000010101000000
1100010000011101
0101110001001111
1101001110000100
0010110010111101
0111001110101110
0111000000100101
0101111000010111
1110011101110011
1001000001100101
1001100011000110
0010011001010110
0100100110001101
1001011100110101
0111110001010001
1111110011000000
0011011111011001
1001010110100110
1110001001000000
1100001101101011
1010000100000000
1111101111010111
1000110111000011
1101111110101001
0110101110010111
0100000011000001
0011110110001001
1100000111101111
0110110001100001
0000101000111000
1001100100010110
1000110011001011
0110000000111100
0111101101011011
1001011110011101
0111011100000011
0111000110101000
0010100011011110
0111010101101010
0000011011010101
0001011101000000
1111100101001111
1001010011110011
1100010000010111
0100100001011010
1101011111001010
1010100010111101
1011101001101010
0010000110100101
1111101100100010
1101011010011111
1110011000011010
1011101111111111
0011001011111101
0001100100100111
0111100101100100
0010000001001010
1101100011110011
1110001000001001
1001001101000001
0111010101001000
0101110001011001
0100100000101110
1101011010100111
1110110111001100
1101010010001001
1101100000011100
0111011100001111
0110010001011110
0001111101101000
0100000001011000
0010101001110001
0010110000000010
0011100000000110
1110011000111010
1001101001110000
0111000100011000
1101101110111100
1101010100100100
1011000110011110
0100000011101100
0000000010011010
1001001011111000
1110101010010001
1001010110000100
0110011101010001
0101011001000011
1011000110101101
1111011010011000
1100011100001101
1010011011100110
1111011100010111
0110001000101011
1010100000111101
0010001110011010
1111101010000110
1000011010110010
1010000000111011
0001000011111011
1111000001100110
1111001001111101
0010111110010110
1011011010011100
0110110111110100
1111001001001111
1110100110011100
0001101100011010
0010000111001001
0100110000100101
0001111101110000
0101010111110101
0110110011100011
1100100111111001
1100000011101001
1010011111000110
0110010001111011
0011001011001000
1100001111010011
0101011000101010
0010011010011111
1010101101000011
1000001110000001
1100101100111100
0110000100101111
0110101000101110
0001111111010110
0110110110010001
0111000010110000
0111001011011011
1011010111111110
0110101001111111
1110001100111101
1101001010110010
1001101101001100
0001001110010011
0110100101011010
1100000010110100
1110010001011000
0000011111011001
1111110000101110
0111111110011011
1001101011101001
0101001000011010
1010101001000101
1010000100000100
0000001100011010
0001001111100010
0001101101111111
0010011001010001
1011101100000111
1100001100010011
1110001001111000
0010001101110000
1101101101101010
0000000110111011
1000001110010001
1011111001011111
0011110011011010
1000000110111010
0100000010101100
0101101010110111
1101110100100010
0101011101011110
0000000110010110
0001011101111010
0110010111101110
0100101111000010
0001110111001100
0000010001000101
0100001111111000
1001010001100000
0110011110011100
0110011101000101
0100101100010000
0110010011110110
1011001110110111
0011011001101001
0100000011101100
0100000111101000
1101101001100101
0001011110010010
0111010001010110
0000110010101010
1101000101000001
0011000010011000
0011101011101000
0010001000001000
0110101010110000
0100111000001110
0000000010010110
1111100111000011
1110111010010001
0010011110001011
1010111110111101
1010010110011110
0011111010101101
0011010111000101
1011100011111111
0111111011101011
1000000000111001
0100111110101001
1110110001001111
1001011011010110
1101110011010101
0011011001110010
1110100110001111
1000000110000101
1110011100110011
1101110011110000
1001010110011000
0101010001110000
0111100101010011
1001110111011010
0001010011110111
0010101011010101
1001011101110111
0101111100000011
1001011111010110
0101001000111111
0111001001111001
0011011100111111
1110001011101111
1000001101111101
0000001001010110
1011011111110000
1010011010010011
1101000000011010
1100001101001011
1111101010001000
1110000101111101
0110011001100110
1010100101100101
1110110111001001
1011101100101000
0111101001011110
0001110100010111
1101111111001100
0001001001100001
0000101101111010
0101100010001111
0010001100011100
0100111101000001
1000111111100110
0010010111111000
1001110111000001
0010100011111010
0111100111000010
1101101101000100
1010111001011110
1111000000000011
1011111011000100
1100010000001011
0100101000000001
1001100010111101
1001100101101110
1111100011110110
0001101000110101
1010101011111110
1010011100101111
0101100100101010
1110000111011100
1010011001011000
1111110000011010
0001011011101010
1000110001100011
1110110001111111
0000101001011011
1011110100100111
0110101110010101
1110110111010101
1111111111111001
0000100001000000
0011111110011100
1111001011110011
1010000101111010
1101100111100101
1011011111101001
0100101011011010
0001111100011010
1100000011001111
1100010001111110
0000000011100000
0111111101000101
1000000011100111
1101101011100111
0101101001000111
1011100000010011
0111101111010001
1100101110110010
1011010011111001
1101011110000111
0001111010101110
0111000011110110
1011111111101000
1100100101000100
1111101100110010
0001011100011111
1001001110011001
0010000001110111
1001010011101000
1101101010010011
0100100101001000
0011101000011001
1100100010001011
0101111011001001
0111101011110011
0100001100110010
0101011000000110
1101100000111011
1100101101101010
1110000110100001
1100000010110101
1010100010110001
1001110010110001
1011010010111001
0011010001001010
0100010010110010
0001001101101011
0010011110111101
0100010100011100
1111011011001011
0101011111000101
0110001110101001
1000000111101011
1011100111101110
1100100101100100
1001010101011111
0100110010010010
1101101000010100
1010001111011001
0010011110011110
1011100110110100
1011011001001111
0011100001000010
1100100101000000
0010000011100110
1111111011010000
0010011000101110
1110111000011111
0010101000001001
0110101010101111
0110110000110001
1010011101101001
1111010101100111
1101100000010010
0001101111111011
0000010010001111
0101101111001111
0001111100011111
1000100011110001
1011110000010011
0010100101101111
0011000011001011
1110101101000000
0101111101010001
1110100111100011
1100110101100111
0010011101101111
1010010010010011
0110011011000001
1001111100110101
0001000100101001
1110111101001101
1111111101011110
0111010101000110
1011101111001101
1000001100110000
0110100110101111
1010110110100011
1110111000001011
1011110101100100
0001000011101111
1010011010100010
1011010010011101
1001000000001000
1110000101110001
0010011010111010
0011110001001000
1010000011011100
0111111001111000
1110110110110111
1011111011111000
1100011111101011
0001000010110100
1110010000001000
0100111010100101
0000101000110010
1110101100100010
1011100111010110
1000000101011101
0001001000100000
1001001100011001
0101111011100111
1001010100101100
0111110011000000
0111001011111010
1010101011110011
1011110111000100
1110001001101011
1010100110010110
0101100110100111
0010001100001001
0011011000111001
0110000101000111
1100010111011110
1110011110101001
1111000000101111
1010010100110100
0100110101100111
0101010010111110
0001110111111101
1111111000000110
1011101011000110
1100010110111110
1001110001001000
1010111000001101
1110010001010000
1111111010111001
0100101011001011
0101011111000001
0100100001101011
1010001110000100
0111101111000101
1011001111011100
1011000101101100
0100010110011011
1101100000101000
1100000010000101
0100010001100010
0110010110011111
1001100010001010
1111011110110010
0100010000111001
0000111010001010
1011101100010111
1111101110001110
1011111011000010
1110111000001100
1000011111000100
1000001110000111
0011010101011111
0011010000011110
1001111111100101
1110110101010100
0100100011110011
0110001101100010
0110001100110111
0001111111111101
0001000100100111
1101001110010110
1001110101111110
0000101010100101
0101100011111000
0100001100011110
1000011111001101
0101000100100001
1000100100001110
0111010101111110
0100110100011010
1111010101111100
1110010011011100
1110111000101000
1011100100110101
0001010011101001
0001101001111010
1111100110010110
0101000000000010
1110100110111110
1111010010010100
0111010110001101
1011000100101111
1110010011001001
1101111001111000
1000100001001111
0111100001010001
1001110001001000
0001111100010110
0000011110001010
0111001101111000
0111111010011100
1101000111110000
0110011000011101
1110100101000100
1101100101100000
1001111001011001
0000100001100100
1000010101001111
0011001111101000
1100000101000011
0101101110101100
0011001101010000
0100010111010110
0111100000101001
0110001011001010
0110000100101001
1110000101100100
1111100001111111
0011001010011110
0001011100101010
0100010001100101
1001111100111111
0101101110100110
0111010011000111
0110100110010101
0101101111011011
0111011011100001
0000111011110100
1000001101110010
1011001011001100
0001100001001100
1110000101100001
1101010001001111
0101101100000100
0101001100110111
0010001000010111
1101101011000111
1010111100011011
1101101110111010
0001110011000000
0110100111100000
0101011100001101
1100000011101110
0110001100111101
0010111011111000
0001100111010110
0110101110101100
1011011001101000
1100110001010011
0110000011111110
0001000001010111
1011010010100011
0001001000000100
1000000001010010
1101010000101100
0000000111000001
0000101111100111
0011000101110011
1111101010111111
1001101100011100
0000101000110110
1111100000000011
